#ifndef MPU_6050_MODEL_H
#define MPU_6050_MODEL_H


unsigned int mpu_6050_model_len = 5664;
unsigned char mpu_6050_model[] = {
 0x1c, 0x00, 0x00, 0x00, 0x54, 0x46, 0x4c, 0x33, 0x14, 0x00, 0x20, 0x00,
  0x1c, 0x00, 0x18, 0x00, 0x14, 0x00, 0x10, 0x00, 0x0c, 0x00, 0x00, 0x00,
  0x08, 0x00, 0x04, 0x00, 0x14, 0x00, 0x00, 0x00, 0x1c, 0x00, 0x00, 0x00,
  0x88, 0x00, 0x00, 0x00, 0xe0, 0x00, 0x00, 0x00, 0xc0, 0x0e, 0x00, 0x00,
  0xd0, 0x0e, 0x00, 0x00, 0x8c, 0x15, 0x00, 0x00, 0x03, 0x00, 0x00, 0x00,
  0x01, 0x00, 0x00, 0x00, 0x04, 0x00, 0x00, 0x00, 0x3e, 0xf0, 0xff, 0xff,
  0x0c, 0x00, 0x00, 0x00, 0x1c, 0x00, 0x00, 0x00, 0x38, 0x00, 0x00, 0x00,
  0x0f, 0x00, 0x00, 0x00, 0x73, 0x65, 0x72, 0x76, 0x69, 0x6e, 0x67, 0x5f,
  0x64, 0x65, 0x66, 0x61, 0x75, 0x6c, 0x74, 0x00, 0x01, 0x00, 0x00, 0x00,
  0x04, 0x00, 0x00, 0x00, 0x94, 0xff, 0xff, 0xff, 0x0b, 0x00, 0x00, 0x00,
  0x04, 0x00, 0x00, 0x00, 0x07, 0x00, 0x00, 0x00, 0x64, 0x65, 0x6e, 0x73,
  0x65, 0x5f, 0x31, 0x00, 0x01, 0x00, 0x00, 0x00, 0x04, 0x00, 0x00, 0x00,
  0x1e, 0xf1, 0xff, 0xff, 0x04, 0x00, 0x00, 0x00, 0x0c, 0x00, 0x00, 0x00,
  0x63, 0x6f, 0x6e, 0x76, 0x32, 0x64, 0x5f, 0x69, 0x6e, 0x70, 0x75, 0x74,
  0x00, 0x00, 0x00, 0x00, 0x02, 0x00, 0x00, 0x00, 0x34, 0x00, 0x00, 0x00,
  0x04, 0x00, 0x00, 0x00, 0xdc, 0xff, 0xff, 0xff, 0x0e, 0x00, 0x00, 0x00,
  0x04, 0x00, 0x00, 0x00, 0x13, 0x00, 0x00, 0x00, 0x43, 0x4f, 0x4e, 0x56,
  0x45, 0x52, 0x53, 0x49, 0x4f, 0x4e, 0x5f, 0x4d, 0x45, 0x54, 0x41, 0x44,
  0x41, 0x54, 0x41, 0x00, 0x08, 0x00, 0x0c, 0x00, 0x08, 0x00, 0x04, 0x00,
  0x08, 0x00, 0x00, 0x00, 0x0d, 0x00, 0x00, 0x00, 0x04, 0x00, 0x00, 0x00,
  0x13, 0x00, 0x00, 0x00, 0x6d, 0x69, 0x6e, 0x5f, 0x72, 0x75, 0x6e, 0x74,
  0x69, 0x6d, 0x65, 0x5f, 0x76, 0x65, 0x72, 0x73, 0x69, 0x6f, 0x6e, 0x00,
  0x0f, 0x00, 0x00, 0x00, 0xdc, 0x0d, 0x00, 0x00, 0xd4, 0x0d, 0x00, 0x00,
  0xb4, 0x0d, 0x00, 0x00, 0x9c, 0x0d, 0x00, 0x00, 0x8c, 0x01, 0x00, 0x00,
  0x5c, 0x01, 0x00, 0x00, 0xbc, 0x00, 0x00, 0x00, 0xb4, 0x00, 0x00, 0x00,
  0xac, 0x00, 0x00, 0x00, 0xa4, 0x00, 0x00, 0x00, 0x9c, 0x00, 0x00, 0x00,
  0x94, 0x00, 0x00, 0x00, 0x8c, 0x00, 0x00, 0x00, 0x6c, 0x00, 0x00, 0x00,
  0x04, 0x00, 0x00, 0x00, 0xd6, 0xf1, 0xff, 0xff, 0x04, 0x00, 0x00, 0x00,
  0x58, 0x00, 0x00, 0x00, 0x0c, 0x00, 0x00, 0x00, 0x08, 0x00, 0x0e, 0x00,
  0x08, 0x00, 0x04, 0x00, 0x08, 0x00, 0x00, 0x00, 0x10, 0x00, 0x00, 0x00,
  0x28, 0x00, 0x00, 0x00, 0x00, 0x00, 0x06, 0x00, 0x08, 0x00, 0x04, 0x00,
  0x06, 0x00, 0x00, 0x00, 0x04, 0x00, 0x00, 0x00, 0x01, 0x00, 0x00, 0x00,
  0xea, 0x03, 0x00, 0x00, 0x00, 0x00, 0x0a, 0x00, 0x10, 0x00, 0x0c, 0x00,
  0x08, 0x00, 0x04, 0x00, 0x0a, 0x00, 0x00, 0x00, 0x02, 0x00, 0x00, 0x00,
  0x02, 0x00, 0x00, 0x00, 0x04, 0x00, 0x00, 0x00, 0x05, 0x00, 0x00, 0x00,
  0x32, 0x2e, 0x39, 0x2e, 0x31, 0x00, 0x00, 0x00, 0x3a, 0xf2, 0xff, 0xff,
  0x04, 0x00, 0x00, 0x00, 0x10, 0x00, 0x00, 0x00, 0x31, 0x2e, 0x35, 0x2e,
  0x30, 0x00, 0x00, 0x00, 0x00, 0x00, 0x00, 0x00, 0x00, 0x00, 0x00, 0x00,
  0x48, 0xec, 0xff, 0xff, 0x4c, 0xec, 0xff, 0xff, 0x50, 0xec, 0xff, 0xff,
  0x54, 0xec, 0xff, 0xff, 0x58, 0xec, 0xff, 0xff, 0x5c, 0xec, 0xff, 0xff,
  0x6e, 0xf2, 0xff, 0xff, 0x04, 0x00, 0x00, 0x00, 0x90, 0x00, 0x00, 0x00,
  0x83, 0xeb, 0x74, 0xbe, 0xc2, 0x65, 0x41, 0xbe, 0x54, 0x9c, 0x98, 0xbe,
  0x7a, 0x85, 0x9b, 0x3e, 0xc4, 0x50, 0x54, 0x3e, 0x40, 0x44, 0x31, 0x3c,
  0x20, 0x54, 0x88, 0x3c, 0x20, 0xc5, 0x0c, 0x3e, 0x8b, 0xf4, 0xac, 0xbe,
  0x1b, 0x5e, 0x77, 0xbe, 0xbb, 0x53, 0x1a, 0xbe, 0xc1, 0x1a, 0x3a, 0xbe,
  0x7b, 0x16, 0x9f, 0xbe, 0x2a, 0xb5, 0x80, 0x3e, 0x40, 0x54, 0x0f, 0x3c,
  0x01, 0xd6, 0x84, 0xbe, 0x0a, 0x0c, 0xaa, 0x3e, 0xb1, 0xb9, 0x23, 0xbe,
  0x3a, 0x83, 0x1f, 0xbe, 0xf5, 0x29, 0xa9, 0xbe, 0xb3, 0xc7, 0x48, 0xbe,
  0x80, 0x27, 0x08, 0xbd, 0x84, 0xd1, 0x5d, 0x3e, 0xd0, 0x34, 0x81, 0x3e,
  0x1e, 0xd3, 0x8f, 0x3e, 0x58, 0x33, 0x28, 0xbe, 0x80, 0x1c, 0x04, 0x3d,
  0xb8, 0x45, 0x85, 0x3e, 0xfe, 0xbf, 0x84, 0x3e, 0xc9, 0x21, 0x89, 0xbe,
  0xbc, 0x4a, 0xac, 0x3d, 0x80, 0x4d, 0x50, 0x3c, 0x10, 0x04, 0x53, 0x3d,
  0x6c, 0xeb, 0x91, 0x3e, 0x9d, 0x19, 0x81, 0xbe, 0xcd, 0x94, 0x6d, 0xbe,
  0x0a, 0xf3, 0xff, 0xff, 0x04, 0x00, 0x00, 0x00, 0x20, 0x00, 0x00, 0x00,
  0x5c, 0x9e, 0x70, 0x3f, 0x28, 0x49, 0xac, 0x3e, 0x60, 0x17, 0xc3, 0xbe,
  0x18, 0xcc, 0x69, 0x3f, 0xf0, 0x43, 0xe0, 0x3e, 0x6c, 0x74, 0x26, 0xbf,
  0x30, 0x09, 0x16, 0x3f, 0x70, 0xcb, 0x1d, 0x3e, 0x36, 0xf3, 0xff, 0xff,
  0x04, 0x00, 0x00, 0x00, 0x00, 0x0c, 0x00, 0x00, 0x00, 0x95, 0xe1, 0xba,
  0x8d, 0x3b, 0x12, 0xbe, 0x57, 0xc6, 0xb4, 0xbd, 0x9e, 0x66, 0xaf, 0x3d,
  0x60, 0x0d, 0x76, 0x3d, 0x6f, 0xcc, 0x2e, 0x3e, 0x00, 0x62, 0xc9, 0xba,
  0xf8, 0x8d, 0x98, 0xbc, 0x6d, 0x03, 0x24, 0x3e, 0xba, 0xcb, 0xce, 0x3d,
  0x60, 0xaa, 0x34, 0x3c, 0xca, 0x28, 0xdb, 0x3d, 0xc9, 0x52, 0x00, 0xbe,
  0x18, 0x1f, 0x9f, 0xbc, 0xe4, 0x9a, 0x55, 0x3d, 0xac, 0x35, 0x22, 0xbe,
  0x2a, 0x64, 0xaa, 0xbd, 0x5d, 0xb0, 0x09, 0x3e, 0xb4, 0x26, 0x2f, 0x3d,
  0x8f, 0x50, 0x26, 0x3e, 0x42, 0xef, 0xc9, 0x3d, 0x7e, 0x8e, 0x8d, 0x3d,
  0x93, 0x8a, 0x13, 0x3e, 0xdc, 0xf6, 0x8d, 0x3d, 0x00, 0x88, 0xd1, 0xb8,
  0x58, 0x0c, 0xb6, 0x3c, 0x99, 0x73, 0xc9, 0xbd, 0x08, 0x45, 0x08, 0xbe,
  0xe0, 0xac, 0xcf, 0x3c, 0x60, 0x4b, 0x0f, 0x3d, 0xc0, 0x2e, 0x13, 0x3c,
  0xa0, 0x88, 0x9e, 0xbc, 0x26, 0xdd, 0xa4, 0x3d, 0x4c, 0x6e, 0x01, 0x3d,
  0x55, 0x2a, 0xb8, 0xbd, 0x9b, 0x52, 0x21, 0x3e, 0x37, 0x6f, 0x27, 0x3e,
  0x82, 0x69, 0xe6, 0xbd, 0x98, 0x38, 0x5d, 0x3d, 0x39, 0x79, 0x25, 0x3e,
  0x72, 0xc0, 0xd4, 0xbd, 0x5b, 0x7b, 0x16, 0xbe, 0xd2, 0x47, 0xaa, 0x3d,
  0x40, 0x7e, 0x23, 0xbc, 0xa9, 0x19, 0x08, 0x3e, 0x2a, 0x42, 0x54, 0xbd,
  0xcb, 0x4a, 0x1e, 0xbe, 0xc0, 0x97, 0x36, 0x3d, 0xd8, 0x1d, 0x67, 0x3d,
  0x4d, 0x52, 0x1d, 0xbe, 0x00, 0x8d, 0x4f, 0x3a, 0x40, 0x60, 0x92, 0x3d,
  0xd0, 0xd8, 0x21, 0xbd, 0x24, 0x39, 0x7b, 0x3d, 0xe4, 0x66, 0x30, 0xbe,
  0x1a, 0x8a, 0x9a, 0xbd, 0x00, 0xfa, 0xa8, 0x3a, 0xcc, 0x3e, 0x9e, 0xbd,
  0x24, 0xd1, 0x37, 0xbd, 0x37, 0x62, 0x96, 0xbd, 0xc0, 0x28, 0x47, 0xbc,
  0xf7, 0xa4, 0xb1, 0xbd, 0x5a, 0xdc, 0xdb, 0xbd, 0x95, 0x69, 0x0f, 0x3e,
  0xb0, 0xc4, 0xdb, 0xbd, 0xad, 0x80, 0x26, 0xbe, 0xe8, 0x59, 0x42, 0xbd,
  0x1a, 0xbb, 0x15, 0xbe, 0x0b, 0xe3, 0x1b, 0x3e, 0x90, 0x06, 0x2f, 0xbc,
  0xa2, 0xce, 0xf0, 0xbd, 0xeb, 0x20, 0x1a, 0x3e, 0x32, 0x2b, 0xff, 0x3d,
  0x29, 0x2c, 0x00, 0x3e, 0xec, 0xc5, 0x27, 0x3d, 0x46, 0x27, 0xe0, 0x3d,
  0xec, 0x19, 0xf3, 0xbd, 0x3e, 0x94, 0xe5, 0x3d, 0x90, 0x61, 0x0f, 0x3d,
  0xae, 0x0e, 0xab, 0x3d, 0xe3, 0x47, 0x32, 0x3e, 0x45, 0xa6, 0xc3, 0xbd,
  0x94, 0x31, 0x3f, 0xbd, 0x4d, 0xe2, 0x11, 0x3e, 0xec, 0x0d, 0x17, 0xbd,
  0xe0, 0xdc, 0x1e, 0xbc, 0xf0, 0x3e, 0x83, 0x3c, 0x4f, 0xda, 0xa6, 0xbd,
  0x78, 0xb4, 0x74, 0x3d, 0x7f, 0x34, 0x0d, 0x3e, 0x34, 0xf1, 0x75, 0xbd,
  0x11, 0x57, 0x07, 0x3e, 0x7b, 0xeb, 0x04, 0xbe, 0xa2, 0x42, 0xf5, 0x3d,
  0xae, 0xbb, 0x1a, 0xbe, 0xda, 0xb5, 0xbe, 0xbd, 0x18, 0x72, 0x8d, 0xbc,
  0x02, 0x19, 0x93, 0x3d, 0x34, 0x68, 0x39, 0x3d, 0x47, 0x25, 0x10, 0x3e,
  0x59, 0xca, 0x1c, 0x3e, 0x42, 0x3b, 0xef, 0x3d, 0x95, 0x45, 0x10, 0x3e,
  0x7b, 0x4f, 0x14, 0x3e, 0xb6, 0x2b, 0xf2, 0x3d, 0xdb, 0x5c, 0x27, 0xbe,
  0x14, 0xa4, 0xd1, 0xbd, 0x52, 0x5d, 0xdf, 0x3d, 0x90, 0x40, 0x39, 0xbd,
  0x68, 0x90, 0xd0, 0x3c, 0x40, 0x37, 0x5c, 0x3b, 0xe6, 0x75, 0xd5, 0x3d,
  0xd7, 0x35, 0x05, 0xbe, 0x4a, 0xa1, 0x9f, 0x3d, 0x13, 0x84, 0x1a, 0x3e,
  0xeb, 0x18, 0x14, 0xbe, 0x80, 0x3d, 0xab, 0x3b, 0x80, 0x73, 0x13, 0xbc,
  0xf4, 0x4f, 0x2d, 0xbd, 0x2e, 0x1c, 0x24, 0xbe, 0xea, 0xe2, 0xde, 0x3d,
  0x83, 0x06, 0x02, 0x3e, 0x75, 0x4c, 0x30, 0x3e, 0xdc, 0x1a, 0x4c, 0x3d,
  0xce, 0x71, 0x89, 0x3d, 0xdb, 0xa6, 0xf3, 0xbd, 0x25, 0x7b, 0x0c, 0xbe,
  0xda, 0x90, 0x1d, 0xbe, 0x80, 0x9c, 0xb8, 0x3b, 0x0c, 0x0e, 0x36, 0xbd,
  0xbc, 0xb4, 0xf1, 0xbd, 0x03, 0x11, 0xcf, 0xbd, 0xc0, 0x08, 0x5e, 0x3c,
  0xc9, 0x58, 0x2d, 0x3e, 0x20, 0xc0, 0x31, 0x3d, 0x87, 0x47, 0xe8, 0xbd,
  0xd7, 0x5a, 0xf2, 0xbd, 0x9b, 0xee, 0x01, 0xbe, 0x00, 0x22, 0x3b, 0xba,
  0xe1, 0x69, 0x2e, 0xbe, 0xb2, 0x14, 0xf0, 0x3d, 0xb7, 0xbc, 0x2f, 0xbe,
  0xa8, 0xd7, 0xdb, 0x3c, 0x40, 0x0c, 0xfd, 0xbc, 0x80, 0x6d, 0x95, 0x3c,
  0x16, 0xeb, 0x81, 0x3d, 0x74, 0x14, 0xdf, 0xbd, 0x92, 0x48, 0xc1, 0x3d,
  0xc6, 0x63, 0xdf, 0x3d, 0x0f, 0x27, 0x01, 0x3e, 0x2c, 0x95, 0x3c, 0xbd,
  0x16, 0x1f, 0x0f, 0xbe, 0x25, 0xd0, 0x11, 0xbe, 0xc4, 0x6d, 0x01, 0xbe,
  0xd1, 0xe2, 0xf4, 0xbd, 0x54, 0x43, 0x20, 0x3d, 0x20, 0x94, 0x42, 0x3d,
  0x8f, 0x54, 0x12, 0x3e, 0xd4, 0xbe, 0x49, 0x3d, 0x8e, 0x9e, 0x0c, 0xbe,
  0x35, 0x7b, 0x32, 0x3e, 0x55, 0x65, 0x1b, 0xbe, 0x4b, 0xce, 0x15, 0x3e,
  0xde, 0x02, 0xdf, 0xbd, 0x4e, 0x81, 0x8d, 0x3d, 0xa0, 0x77, 0x4c, 0x3d,
  0x1a, 0xbc, 0xfb, 0x3d, 0x6e, 0x57, 0x89, 0x3d, 0x90, 0xc6, 0x1b, 0x3d,
  0xde, 0xc4, 0xde, 0x3d, 0xd2, 0xda, 0x16, 0xbe, 0x12, 0x97, 0xdd, 0x3d,
  0x75, 0xd3, 0x0c, 0x3e, 0xd0, 0xf9, 0x47, 0x3d, 0x64, 0x39, 0x1f, 0xbd,
  0xb4, 0xea, 0x08, 0x3d, 0x70, 0x1a, 0xea, 0x3c, 0x85, 0xce, 0x1c, 0x3e,
  0xf2, 0x7b, 0xfe, 0x3d, 0xa0, 0xa6, 0x56, 0xbc, 0x25, 0x1f, 0x06, 0x3e,
  0x81, 0xbb, 0x08, 0xbe, 0xa7, 0x1f, 0xc0, 0xbd, 0xd1, 0x75, 0x09, 0xbe,
  0xea, 0x42, 0xb5, 0x3d, 0x8e, 0xe7, 0xe2, 0x3d, 0x48, 0x34, 0xc6, 0xbd,
  0x89, 0xf2, 0xa7, 0xbd, 0xd4, 0xaa, 0x01, 0xbd, 0xec, 0xe6, 0xd0, 0xbd,
  0xba, 0x0d, 0xbf, 0xbd, 0x88, 0x9f, 0xfe, 0xbc, 0x00, 0x2b, 0xda, 0xbc,
  0xb8, 0x77, 0x1f, 0xbe, 0xc6, 0x89, 0x6b, 0xbd, 0x26, 0x77, 0x77, 0xbd,
  0x22, 0xbe, 0xd3, 0x3d, 0xf0, 0xa5, 0xdc, 0xbc, 0x8b, 0x8a, 0xe4, 0xbd,
  0x61, 0x61, 0x1c, 0x3e, 0xd2, 0x73, 0xbb, 0xbd, 0x5f, 0x52, 0xe5, 0xbd,
  0x00, 0xb4, 0xa6, 0x3b, 0xbb, 0x33, 0x00, 0x3e, 0xe7, 0x10, 0x11, 0x3e,
  0x06, 0xca, 0xf3, 0x3d, 0xd4, 0x15, 0xf0, 0xbd, 0x04, 0xbc, 0x2b, 0x3d,
  0xbb, 0xe0, 0x29, 0x3e, 0x2a, 0x02, 0x98, 0x3d, 0xe0, 0xa4, 0x2a, 0xbe,
  0x49, 0x54, 0x2f, 0xbe, 0x4e, 0x8f, 0xb8, 0x3d, 0x3f, 0xbf, 0x1d, 0x3e,
  0xf0, 0x8d, 0xb4, 0xbd, 0xf8, 0xdf, 0x8e, 0xbc, 0x4d, 0xfe, 0xc9, 0xbd,
  0xaa, 0xfb, 0xa9, 0x3d, 0x6c, 0x10, 0x0f, 0xbe, 0x80, 0xe1, 0x53, 0xbd,
  0xe0, 0x01, 0x8f, 0xbd, 0xb8, 0x5b, 0x6e, 0x3d, 0x5a, 0x78, 0x06, 0xbe,
  0xc0, 0x28, 0xd1, 0xbd, 0x83, 0x58, 0x0e, 0xbe, 0xbc, 0x97, 0x08, 0xbe,
  0x13, 0x3e, 0x0f, 0xbe, 0x16, 0x1b, 0x28, 0xbe, 0x86, 0x08, 0xbb, 0x3d,
  0xe8, 0x3d, 0x36, 0x3d, 0xca, 0xd0, 0x85, 0x3d, 0x88, 0xc2, 0xf2, 0xbc,
  0xd1, 0x71, 0x0b, 0x3e, 0x50, 0x88, 0x00, 0xbe, 0xa3, 0x6a, 0x17, 0xbe,
  0x48, 0x6a, 0x9e, 0xbc, 0x98, 0x76, 0x20, 0xbd, 0x40, 0x49, 0x8e, 0xbb,
  0x4c, 0xc6, 0x19, 0xbe, 0x8c, 0x3a, 0xed, 0xbd, 0x82, 0x2c, 0x5f, 0xbd,
  0xdb, 0x8a, 0x8e, 0xbd, 0x05, 0x96, 0x15, 0xbe, 0x90, 0x84, 0x3b, 0x3c,
  0xac, 0x48, 0x67, 0xbd, 0x20, 0xdb, 0x46, 0xbd, 0x86, 0xe2, 0xfa, 0x3d,
  0xef, 0x5d, 0x21, 0xbe, 0xc4, 0xcd, 0x5e, 0x3d, 0xc8, 0xb3, 0xf6, 0xbd,
  0xfc, 0x48, 0x6d, 0x3d, 0xe0, 0xbf, 0x3b, 0x3c, 0x80, 0x64, 0x04, 0xbb,
  0x60, 0xc5, 0x93, 0x3d, 0x61, 0x90, 0x26, 0xbe, 0x64, 0x49, 0x3b, 0xbd,
  0xfc, 0xdd, 0xfe, 0xbd, 0x6b, 0xcc, 0xc2, 0xbd, 0xe1, 0x70, 0x0f, 0x3e,
  0x26, 0xf9, 0xb6, 0x3d, 0x7e, 0xe9, 0xc1, 0x3d, 0x82, 0xaf, 0x28, 0xbe,
  0xb4, 0xa9, 0x12, 0xbe, 0xe0, 0x0b, 0x92, 0x3d, 0xc6, 0x12, 0xdb, 0x3d,
  0x1f, 0xb9, 0x29, 0x3e, 0xad, 0x53, 0x23, 0x3e, 0x10, 0x48, 0x2d, 0xbc,
  0x98, 0x03, 0x9a, 0x3c, 0x90, 0x7e, 0xba, 0xbc, 0xe9, 0x83, 0x21, 0x3e,
  0x2a, 0xb0, 0xbd, 0x3d, 0x31, 0xc6, 0x26, 0x3e, 0x68, 0xe8, 0xf8, 0xbc,
  0x60, 0x53, 0x66, 0x3d, 0x11, 0x0e, 0x1e, 0x3e, 0x5e, 0x57, 0x50, 0xbd,
  0x70, 0xc9, 0x68, 0xbc, 0x38, 0xaf, 0x27, 0xbd, 0x24, 0xea, 0x27, 0x3d,
  0xae, 0xa3, 0xcc, 0x3d, 0x49, 0xab, 0x0d, 0x3e, 0x0c, 0x4f, 0x5e, 0x3d,
  0x19, 0x01, 0x27, 0xbe, 0x36, 0x39, 0xc9, 0x3d, 0x95, 0x43, 0x09, 0xbe,
  0x5e, 0x8f, 0x94, 0x3d, 0xb0, 0x35, 0x09, 0x3c, 0x69, 0xb9, 0x20, 0x3e,
  0xd1, 0xc8, 0x0e, 0x3e, 0x10, 0xa7, 0xb1, 0xbd, 0xda, 0xe3, 0xe1, 0x3d,
  0xcc, 0xb7, 0x5a, 0x3d, 0x6e, 0x08, 0xe4, 0x3d, 0x28, 0xdf, 0x96, 0x3d,
  0x2e, 0x7e, 0xd8, 0x3d, 0xb0, 0x9c, 0x3c, 0x3c, 0x3b, 0x5c, 0x2a, 0x3e,
  0x46, 0xd4, 0xfb, 0xbd, 0x02, 0x27, 0xd0, 0x3d, 0x18, 0x56, 0x2b, 0xbd,
  0xb8, 0xe0, 0xd3, 0x3c, 0x80, 0xeb, 0x36, 0x3d, 0x32, 0x44, 0xa9, 0x3d,
  0x4a, 0x38, 0xb8, 0x3d, 0x4d, 0x4e, 0x0e, 0x3e, 0xfa, 0xeb, 0x5d, 0xbd,
  0xad, 0xdc, 0x13, 0x3e, 0x2e, 0xf8, 0xb7, 0x3d, 0x64, 0xeb, 0x0a, 0xbd,
  0x98, 0xe9, 0x78, 0xbd, 0xa0, 0xad, 0x1d, 0xbd, 0x30, 0x83, 0x03, 0xbe,
  0xa0, 0xcf, 0x94, 0x3d, 0xea, 0x6d, 0xda, 0x3d, 0x24, 0xab, 0x8e, 0x3d,
  0x5a, 0x00, 0x9b, 0x3d, 0x06, 0x6d, 0xf7, 0xbd, 0xa0, 0xa5, 0xb9, 0xbc,
  0x00, 0x38, 0x18, 0x3a, 0xb8, 0xc9, 0xb6, 0xbd, 0x0c, 0x66, 0x14, 0x3d,
  0xa6, 0x39, 0xa4, 0x3d, 0xdd, 0x8b, 0x18, 0xbe, 0x88, 0xe2, 0xcd, 0xbc,
  0x99, 0xaa, 0x0d, 0x3e, 0xa6, 0x8c, 0xaa, 0x3d, 0xdf, 0x2b, 0x13, 0x3e,
  0x34, 0xbf, 0x03, 0xbd, 0x50, 0x85, 0xf2, 0xbd, 0x4c, 0xc1, 0xbd, 0xbd,
  0x15, 0x34, 0x28, 0x3e, 0x59, 0x31, 0x8d, 0xbd, 0x5e, 0x84, 0xf5, 0x3d,
  0x94, 0x89, 0x47, 0x3d, 0x30, 0x37, 0x63, 0x3c, 0x4f, 0x30, 0xbe, 0xbd,
  0x5a, 0xf6, 0x09, 0xbe, 0x4c, 0xf8, 0x34, 0x3d, 0x5c, 0x99, 0x14, 0x3d,
  0xb0, 0xb8, 0x1d, 0x3c, 0x6c, 0xea, 0xdd, 0xbd, 0x84, 0x8d, 0x07, 0xbe,
  0x07, 0x32, 0x17, 0x3e, 0x00, 0x07, 0xef, 0xba, 0x68, 0xfe, 0x28, 0x3d,
  0x8e, 0xea, 0xf7, 0x3d, 0x20, 0x05, 0x00, 0x3c, 0x2c, 0x03, 0x04, 0xbe,
  0x80, 0x53, 0x15, 0xbb, 0x09, 0xa6, 0x20, 0x3e, 0x96, 0x4e, 0xbf, 0x3d,
  0x00, 0x08, 0x0f, 0x3c, 0x96, 0x0a, 0xd6, 0x3d, 0x7e, 0x30, 0xd2, 0x3d,
  0xf0, 0xa7, 0xba, 0xbc, 0xcf, 0x12, 0x9f, 0xbd, 0x18, 0x3c, 0xe2, 0x3c,
  0xc2, 0xa5, 0x84, 0xbd, 0xc2, 0xd8, 0xd3, 0x3d, 0x8f, 0x85, 0x14, 0xbe,
  0x8e, 0xf7, 0x00, 0xbe, 0x69, 0x8e, 0x00, 0x3e, 0x7c, 0x58, 0x5a, 0x3d,
  0xd0, 0x6a, 0x0b, 0x3d, 0x98, 0xfc, 0x82, 0x3d, 0x46, 0x84, 0x15, 0xbe,
  0x0e, 0x59, 0xf4, 0x3d, 0xff, 0xe7, 0x20, 0xbe, 0xf0, 0x39, 0x15, 0xbd,
  0x00, 0x71, 0xee, 0xbd, 0x2b, 0x76, 0x1c, 0x3e, 0x6b, 0x7c, 0x08, 0xbe,
  0x75, 0xc8, 0x02, 0x3e, 0xef, 0x8c, 0xed, 0xbd, 0x00, 0x83, 0x02, 0xbd,
  0xdb, 0xdf, 0x21, 0xbe, 0x8f, 0x55, 0x30, 0xbe, 0x24, 0x17, 0x14, 0x3d,
  0x80, 0xb1, 0xdc, 0x3b, 0x88, 0xfe, 0x9f, 0xbd, 0x42, 0x05, 0xe4, 0x3d,
  0xd4, 0xce, 0x2c, 0x3d, 0x26, 0xe6, 0xb5, 0x3d, 0x1a, 0x55, 0xbd, 0xbd,
  0x18, 0xd7, 0xd2, 0xbd, 0x60, 0xf1, 0x1d, 0x3c, 0x57, 0x84, 0x0a, 0x3e,
  0x83, 0x12, 0xd4, 0xbd, 0x18, 0x3f, 0x2a, 0xbe, 0x4f, 0x1a, 0x0a, 0x3e,
  0xe4, 0xfe, 0xbc, 0xbd, 0x20, 0x3b, 0x09, 0x3c, 0x28, 0xad, 0x46, 0x3d,
  0x85, 0xa4, 0x1c, 0xbe, 0xc0, 0x97, 0x0b, 0x3c, 0x34, 0x0a, 0x42, 0x3d,
  0xf6, 0x2f, 0xd5, 0x3d, 0x42, 0xfc, 0xd5, 0x3d, 0xd9, 0x6a, 0xc6, 0xbd,
  0xb6, 0xbe, 0x21, 0xbe, 0x68, 0xd2, 0xd2, 0xbc, 0x5c, 0xde, 0x78, 0x3d,
  0x41, 0xdb, 0x10, 0x3e, 0x92, 0x09, 0xb8, 0x3d, 0xd3, 0x9a, 0x18, 0x3e,
  0x1a, 0xfb, 0x79, 0xbd, 0x69, 0xdf, 0xf0, 0xbd, 0x00, 0x9a, 0xc9, 0x39,
  0x83, 0x9e, 0x2f, 0x3e, 0x36, 0xd9, 0xd6, 0x3d, 0x78, 0x9d, 0xe1, 0x3c,
  0xce, 0x0c, 0xbd, 0x3d, 0x45, 0x74, 0x8a, 0xbd, 0xd0, 0xeb, 0x4e, 0x3c,
  0xb2, 0x1d, 0xc1, 0x3d, 0x01, 0xdf, 0x30, 0xbe, 0x15, 0x61, 0xc8, 0xbd,
  0x18, 0xba, 0x8a, 0xbc, 0x72, 0x4b, 0x2e, 0xbe, 0x79, 0x6a, 0x97, 0xbd,
  0x84, 0x16, 0xfc, 0xbd, 0xe2, 0xf6, 0x21, 0xbe, 0xa6, 0xc5, 0x31, 0xbe,
  0x68, 0xa2, 0x05, 0xbd, 0x43, 0x79, 0x18, 0xbe, 0x45, 0x81, 0x18, 0x3e,
  0xc0, 0x60, 0x1a, 0xbb, 0x1a, 0xbb, 0xc9, 0x3d, 0x6f, 0xc3, 0x08, 0x3e,
  0x90, 0x01, 0xe2, 0x3c, 0xf8, 0x45, 0x92, 0xbc, 0x72, 0xdd, 0xd2, 0x3d,
  0x7b, 0x9e, 0xb6, 0xbd, 0x36, 0xbb, 0xec, 0x3d, 0x0e, 0x1a, 0xd8, 0x3d,
  0x80, 0x97, 0x6c, 0xbb, 0x68, 0x9f, 0xae, 0xbd, 0x62, 0x01, 0x80, 0x3d,
  0xee, 0xaf, 0xe9, 0xbd, 0xd7, 0x8c, 0xd3, 0xbd, 0x9e, 0xc1, 0xa3, 0x3d,
  0x4e, 0xb0, 0xb0, 0x3d, 0xba, 0xce, 0xec, 0x3d, 0x38, 0x00, 0xef, 0x3c,
  0xa0, 0x9a, 0x7f, 0x3c, 0x5f, 0x4f, 0x00, 0x3e, 0xe0, 0x55, 0x2e, 0x3c,
  0x07, 0x04, 0x2a, 0x3e, 0xc0, 0x17, 0x69, 0x3d, 0x10, 0x2c, 0x52, 0xbc,
  0xe0, 0xb5, 0xa9, 0xbd, 0xf0, 0x54, 0x27, 0xbd, 0x30, 0xee, 0xfb, 0xbd,
  0xda, 0xd0, 0xa5, 0x3d, 0xf8, 0x32, 0x03, 0xbd, 0x5f, 0x67, 0x10, 0x3e,
  0x54, 0xd0, 0x49, 0x3d, 0xe4, 0x92, 0x00, 0x3d, 0x0c, 0xb9, 0x7b, 0xbd,
  0x00, 0x42, 0x46, 0x3d, 0x68, 0x95, 0xf1, 0xbc, 0x8b, 0x40, 0x19, 0x3e,
  0xe0, 0xe7, 0xa5, 0xbc, 0x9e, 0x1d, 0xfd, 0x3d, 0xb2, 0x63, 0xaf, 0x3d,
  0x5d, 0xd0, 0xe9, 0xbd, 0x18, 0xfd, 0x1a, 0xbd, 0xb0, 0x8a, 0x02, 0x3d,
  0xf9, 0xa4, 0x2a, 0x3e, 0x16, 0x44, 0xa9, 0x3d, 0x28, 0xa8, 0x9a, 0xbc,
  0x7b, 0xd2, 0x2d, 0x3e, 0x63, 0x5b, 0x0b, 0x3e, 0x10, 0x85, 0xe8, 0x3c,
  0x6c, 0xd2, 0x83, 0xbd, 0x8f, 0x35, 0x32, 0xbe, 0xc2, 0xb2, 0x9a, 0xbd,
  0x82, 0x16, 0xef, 0x3d, 0x10, 0x05, 0xa1, 0xbd, 0xb7, 0xeb, 0x08, 0x3e,
  0xfc, 0x64, 0x32, 0xbd, 0x10, 0xfb, 0xd2, 0xbc, 0x9a, 0x1f, 0xfb, 0xbd,
  0xc0, 0xce, 0xd9, 0xbb, 0xea, 0x75, 0xb1, 0x3d, 0xa4, 0x2f, 0x09, 0x3d,
  0x78, 0xfa, 0x1f, 0xbd, 0x78, 0x82, 0x99, 0xbc, 0xe3, 0x48, 0xda, 0xbd,
  0x60, 0x7b, 0x26, 0xbd, 0xa0, 0xc3, 0xe8, 0xbb, 0xf1, 0x47, 0x20, 0x3e,
  0x80, 0xaf, 0x40, 0x3c, 0xca, 0x9a, 0xda, 0xbd, 0xfa, 0x80, 0xaf, 0x3d,
  0x65, 0x51, 0x15, 0x3e, 0x14, 0x47, 0x27, 0xbd, 0x4a, 0xa7, 0xe9, 0xbd,
  0x83, 0x26, 0xb4, 0xbd, 0x86, 0xa7, 0xd0, 0x3d, 0x7a, 0xb7, 0x19, 0xbe,
  0x6a, 0x01, 0xdd, 0xbd, 0x25, 0x85, 0x04, 0x3e, 0xd6, 0xcd, 0x27, 0xbe,
  0x30, 0x95, 0xbc, 0xbd, 0x68, 0xe3, 0xe3, 0xbc, 0x00, 0x1a, 0xdc, 0xb9,
  0x2a, 0x1f, 0x1c, 0xbe, 0x62, 0xdc, 0xbc, 0x3d, 0x40, 0x88, 0x35, 0x3d,
  0xce, 0x08, 0xc0, 0x3d, 0x42, 0xc7, 0xee, 0x3d, 0x40, 0x8c, 0x11, 0x3c,
  0xc0, 0x57, 0x61, 0xbc, 0x82, 0x95, 0xfa, 0x3d, 0x53, 0xd6, 0xda, 0xbd,
  0x78, 0xbd, 0x82, 0xbc, 0x08, 0x1f, 0x3f, 0xbd, 0x40, 0x44, 0x51, 0xbc,
  0xb1, 0x74, 0x82, 0xbd, 0x12, 0x12, 0xce, 0x3d, 0xde, 0x6b, 0xb0, 0xbd,
  0x95, 0xdf, 0x1e, 0x3e, 0xcd, 0x73, 0x2d, 0x3e, 0xcc, 0xb1, 0x60, 0x3d,
  0x0c, 0x03, 0x29, 0xbd, 0x2d, 0xb4, 0x0a, 0x3e, 0xdd, 0x9d, 0x87, 0xbd,
  0x96, 0xc5, 0xab, 0x3d, 0x6b, 0x79, 0x2e, 0xbe, 0xa1, 0x4e, 0x27, 0x3e,
  0x00, 0xb6, 0x91, 0xba, 0xe0, 0xd6, 0x07, 0xbd, 0x17, 0x33, 0x0c, 0x3e,
  0x80, 0x25, 0x96, 0x3d, 0x3e, 0xe4, 0xfe, 0xbd, 0xf0, 0xd6, 0x9e, 0xbc,
  0x11, 0x81, 0x26, 0xbe, 0x22, 0x6f, 0xaf, 0x3d, 0x50, 0xf5, 0x07, 0xbe,
  0x0a, 0x6d, 0xad, 0x3d, 0x5c, 0x84, 0x2a, 0x3d, 0xda, 0xdf, 0x86, 0x3d,
  0x1a, 0x7f, 0x6e, 0xbd, 0x44, 0x1b, 0x42, 0x3d, 0x00, 0xf3, 0xe4, 0x3b,
  0xd8, 0x15, 0xd3, 0xbd, 0xb0, 0xcc, 0x5e, 0xbc, 0xda, 0xc2, 0x03, 0xbe,
  0x28, 0xc6, 0x03, 0x3d, 0x66, 0x7a, 0x61, 0xbd, 0x40, 0xe6, 0x7d, 0xbc,
  0xa1, 0xff, 0x08, 0xbe, 0xa4, 0xdb, 0x1b, 0xbe, 0x04, 0xbb, 0x40, 0xbd,
  0x4e, 0x48, 0xaa, 0x3d, 0x70, 0xcd, 0x97, 0xbd, 0xfa, 0x4b, 0xeb, 0x3d,
  0xab, 0x5f, 0x0c, 0x3e, 0x32, 0xb1, 0xfe, 0x3d, 0xe8, 0xab, 0xe9, 0xbd,
  0x9b, 0xc6, 0xe3, 0xbd, 0x26, 0xd8, 0xce, 0x3d, 0xd0, 0x75, 0x4a, 0x3c,
  0xde, 0x6b, 0xcc, 0x3d, 0xce, 0x9a, 0xa2, 0x3d, 0x85, 0xb1, 0xc5, 0xbd,
  0x00, 0x4d, 0xcb, 0x3b, 0x28, 0xe8, 0x12, 0xbd, 0xbe, 0xd7, 0xf5, 0x3d,
  0xc8, 0xc0, 0x56, 0xbd, 0xa1, 0xab, 0x10, 0xbe, 0xbc, 0xc4, 0xde, 0xbd,
  0xb9, 0xb5, 0x13, 0x3e, 0xac, 0xd3, 0x42, 0x3d, 0xd8, 0x8a, 0x17, 0xbe,
  0x58, 0x23, 0x9a, 0x3c, 0x15, 0xad, 0x9c, 0xbd, 0x19, 0x46, 0x02, 0xbe,
  0x62, 0xe3, 0xb7, 0x3d, 0x12, 0xb6, 0xee, 0x3d, 0xf0, 0xeb, 0xb0, 0xbd,
  0x3a, 0xc2, 0xe1, 0x3d, 0xc4, 0xfc, 0x19, 0xbe, 0x40, 0xe5, 0xd6, 0x3c,
  0x26, 0xe8, 0x0c, 0xbe, 0x36, 0x12, 0x0f, 0xbe, 0x94, 0x91, 0x6c, 0xbd,
  0x7e, 0x37, 0x90, 0x3d, 0xd0, 0x2e, 0x0f, 0x3d, 0x9c, 0xd0, 0x61, 0x3d,
  0xc0, 0x5b, 0x7b, 0x3d, 0x47, 0xf9, 0x1a, 0x3e, 0x80, 0x51, 0xe5, 0xbb,
  0x2d, 0x70, 0x9f, 0xbd, 0x00, 0xfc, 0x11, 0xba, 0x00, 0x39, 0xbc, 0x3b,
  0xc8, 0xe3, 0x45, 0xbd, 0x50, 0x4c, 0x6f, 0x3c, 0x68, 0x76, 0xc7, 0xbc,
  0xa8, 0xb8, 0xa4, 0xbc, 0x94, 0xfd, 0x75, 0x3d, 0xa0, 0x69, 0xc1, 0x3c,
  0x3a, 0x23, 0x13, 0xbe, 0x47, 0xbc, 0x11, 0x3e, 0x02, 0x5d, 0xc5, 0x3d,
  0x58, 0x71, 0x6c, 0x3d, 0x1d, 0x19, 0x1e, 0xbe, 0x0a, 0x55, 0xae, 0x3d,
  0x16, 0x9a, 0xb3, 0x3d, 0xc4, 0x76, 0xf2, 0xbd, 0x60, 0x8d, 0xc6, 0x3b,
  0xb9, 0x0e, 0x13, 0x3e, 0xb4, 0xe1, 0x16, 0xbd, 0x23, 0x54, 0x1a, 0x3e,
  0x49, 0x4d, 0x01, 0x3e, 0xc0, 0x5a, 0x09, 0xbc, 0x2d, 0x69, 0x2e, 0xbe,
  0xab, 0x13, 0x9e, 0xbd, 0xb8, 0xa1, 0x32, 0xbe, 0x96, 0x0b, 0xaa, 0xbd,
  0xfa, 0x6b, 0x70, 0xbd, 0x74, 0x94, 0x92, 0xbd, 0x40, 0xd6, 0x37, 0x3c,
  0xe0, 0x05, 0xb6, 0xbc, 0xed, 0xba, 0x18, 0x3e, 0x08, 0xff, 0xe6, 0xbd,
  0x1e, 0xe2, 0x0b, 0xbe, 0xb6, 0x06, 0xed, 0x3d, 0x80, 0x01, 0xbc, 0x3c,
  0x40, 0x1f, 0x0b, 0xbe, 0xab, 0x2e, 0x27, 0x3e, 0x88, 0xcd, 0x27, 0x3d,
  0xc4, 0x72, 0x0d, 0x3d, 0xaa, 0x55, 0x32, 0xbe, 0x77, 0x97, 0x0e, 0x3e,
  0x8c, 0xd6, 0xa3, 0xbd, 0xd2, 0x3a, 0x93, 0x3d, 0xa4, 0x84, 0x48, 0xbd,
  0x23, 0xc8, 0x2e, 0x3e, 0xbc, 0x06, 0x0b, 0x3d, 0xc6, 0xec, 0x00, 0xbe,
  0x68, 0x9b, 0x46, 0xbd, 0x07, 0x31, 0x28, 0x3e, 0x28, 0x1f, 0xcf, 0x3c,
  0xf0, 0x9a, 0x85, 0xbc, 0x45, 0x49, 0x27, 0xbe, 0xad, 0x54, 0x1b, 0xbe,
  0x34, 0x9d, 0xa3, 0xbd, 0x4a, 0xf2, 0xe6, 0x3d, 0x31, 0x42, 0xc6, 0xbd,
  0xba, 0xc2, 0xe1, 0x3d, 0xa0, 0x2e, 0x3d, 0xbc, 0x60, 0xab, 0xb5, 0x3b,
  0x99, 0xf8, 0xdd, 0xbd, 0x99, 0xe1, 0x22, 0x3e, 0x48, 0x18, 0xd8, 0xbd,
  0x74, 0xf1, 0x98, 0xbd, 0x14, 0x7a, 0x7a, 0x3d, 0xe0, 0x68, 0x4a, 0x3c,
  0xb8, 0x07, 0xf1, 0xbd, 0x50, 0xe8, 0x6d, 0xbc, 0x2e, 0x54, 0xaa, 0x3d,
  0x4e, 0xc2, 0xe5, 0xbd, 0x88, 0x58, 0xc3, 0xbc, 0x28, 0x1c, 0x97, 0xbd,
  0x78, 0x57, 0x32, 0x3d, 0x40, 0xba, 0x18, 0xbc, 0x20, 0x89, 0xe3, 0x3c,
  0x86, 0x93, 0xf3, 0xbd, 0xd3, 0x17, 0x0f, 0x3e, 0xe1, 0x1d, 0x2a, 0x3e,
  0xd4, 0x65, 0x1f, 0xbe, 0x2a, 0x7c, 0x65, 0xbd, 0xbd, 0xda, 0xe1, 0xbd,
  0xcf, 0xfb, 0xbf, 0xbd, 0x50, 0xa3, 0x85, 0x3c, 0x62, 0x94, 0xde, 0x3d,
  0xfe, 0x26, 0xe7, 0xbd, 0xdb, 0xf6, 0x22, 0xbe, 0x67, 0xd6, 0x2e, 0x3e,
  0x48, 0xb4, 0xfb, 0xbc, 0xb0, 0x0e, 0xbf, 0xbd, 0xa0, 0x2c, 0x6f, 0xbd,
  0x2c, 0x8a, 0x85, 0x3d, 0x0e, 0xdb, 0xd9, 0xbd, 0x14, 0x51, 0x3d, 0x3d,
  0xab, 0x2b, 0x00, 0xbe, 0xaa, 0x1b, 0xf8, 0xbd, 0xed, 0xdc, 0x9d, 0xbd,
  0xe3, 0x36, 0x1d, 0x3e, 0x42, 0x8d, 0xcb, 0x3d, 0x60, 0xed, 0xe1, 0x3b,
  0x02, 0x45, 0xb9, 0x3d, 0xee, 0xbe, 0xdc, 0x3d, 0xfe, 0x3d, 0x29, 0xbe,
  0x0e, 0x15, 0x22, 0xbe, 0x6e, 0x6e, 0x9c, 0x3d, 0x53, 0x66, 0xd3, 0xbd,
  0xfc, 0x8a, 0x0c, 0xbd, 0xf0, 0x17, 0x8f, 0xbc, 0xfd, 0x67, 0x0a, 0x3e,
  0xea, 0x95, 0xee, 0x3d, 0xe5, 0xa0, 0x0d, 0x3e, 0x64, 0xd0, 0x5b, 0x3d,
  0xc6, 0x18, 0xe4, 0x3d, 0xff, 0x18, 0x03, 0x3e, 0x35, 0xa3, 0xbc, 0xbd,
  0x10, 0xcb, 0x2b, 0x3d, 0xc0, 0x36, 0x04, 0x3d, 0xc3, 0x2a, 0x0f, 0x3e,
  0xe5, 0x42, 0x08, 0x3e, 0xba, 0xd4, 0xc5, 0x3d, 0xa6, 0xae, 0xb9, 0x3d,
  0xdc, 0x17, 0xa6, 0xbd, 0x12, 0x06, 0x85, 0x3d, 0x34, 0x92, 0x70, 0xbd,
  0xba, 0xb2, 0xec, 0x3d, 0x50, 0xc5, 0xda, 0x3c, 0x89, 0x9f, 0x26, 0xbe,
  0x2a, 0x02, 0xe2, 0x3d, 0xe6, 0x20, 0x25, 0xbe, 0xdb, 0xff, 0xae, 0xbd,
  0xc4, 0xd4, 0xd4, 0xbd, 0xf2, 0xdd, 0xa1, 0x3d, 0x10, 0xc2, 0x0e, 0xbc,
  0x46, 0x6d, 0xfd, 0xbd, 0xde, 0x87, 0xd5, 0x3d, 0xc2, 0xc5, 0xc0, 0xbd,
  0x42, 0x32, 0x60, 0xbd, 0xc8, 0x8a, 0xff, 0xbc, 0x1b, 0x08, 0x31, 0x3e,
  0x25, 0xa9, 0x0b, 0xbe, 0xf0, 0x6d, 0x95, 0x3c, 0x45, 0xbe, 0x20, 0x3e,
  0xd7, 0x8a, 0x06, 0x3e, 0x80, 0x84, 0xb9, 0xbb, 0x1e, 0x0d, 0xd9, 0x3d,
  0x70, 0x0f, 0xca, 0x3c, 0xd2, 0xef, 0xbd, 0x3d, 0x34, 0x76, 0x0a, 0xbe,
  0x83, 0xd3, 0x22, 0x3e, 0xe8, 0x78, 0xc8, 0xbc, 0x4e, 0xb9, 0x78, 0xbd,
  0xb0, 0xdf, 0x31, 0x3c, 0x80, 0x4a, 0x16, 0x3b, 0xd0, 0x1b, 0x14, 0x3c,
  0xf2, 0x43, 0xee, 0x3d, 0x35, 0xed, 0x2b, 0xbe, 0xcb, 0x91, 0x1b, 0xbe,
  0x00, 0x51, 0xc7, 0x3b, 0xc3, 0x42, 0x1a, 0x3e, 0x69, 0xc9, 0x16, 0xbe,
  0x82, 0xa7, 0x0c, 0xbe, 0xb0, 0xe1, 0x1e, 0x3d, 0x53, 0xdc, 0x2e, 0x3e,
  0x78, 0xf7, 0xf2, 0x3c, 0xe0, 0x40, 0x55, 0x3d, 0xd1, 0x43, 0x05, 0x3e,
  0x81, 0x98, 0x2b, 0xbe, 0x4f, 0x79, 0x1b, 0xbe, 0x6d, 0x92, 0xa2, 0xbd,
  0xf2, 0xe6, 0x18, 0xbe, 0x29, 0xa9, 0x18, 0x3e, 0xaa, 0x88, 0x0f, 0xbe,
  0xb9, 0xc0, 0x02, 0x3e, 0x98, 0xea, 0xe0, 0x3c, 0x42, 0xff, 0xff, 0xff,
  0x04, 0x00, 0x00, 0x00, 0x08, 0x00, 0x00, 0x00, 0xff, 0xff, 0xff, 0xff,
  0xc0, 0x00, 0x00, 0x00, 0x56, 0xff, 0xff, 0xff, 0x04, 0x00, 0x00, 0x00,
  0x10, 0x00, 0x00, 0x00, 0x00, 0x00, 0x00, 0x00, 0x00, 0x00, 0x00, 0x00,
  0x00, 0x00, 0x00, 0x00, 0x00, 0x00, 0x00, 0x00, 0x64, 0xf9, 0xff, 0xff,
  0x68, 0xf9, 0xff, 0xff, 0x0f, 0x00, 0x00, 0x00, 0x4d, 0x4c, 0x49, 0x52,
  0x20, 0x43, 0x6f, 0x6e, 0x76, 0x65, 0x72, 0x74, 0x65, 0x64, 0x2e, 0x00,
  0x01, 0x00, 0x00, 0x00, 0x14, 0x00, 0x00, 0x00, 0x00, 0x00, 0x0e, 0x00,
  0x18, 0x00, 0x14, 0x00, 0x10, 0x00, 0x0c, 0x00, 0x08, 0x00, 0x04, 0x00,
  0x0e, 0x00, 0x00, 0x00, 0x14, 0x00, 0x00, 0x00, 0x1c, 0x00, 0x00, 0x00,
  0xcc, 0x01, 0x00, 0x00, 0xd0, 0x01, 0x00, 0x00, 0xd4, 0x01, 0x00, 0x00,
  0x04, 0x00, 0x00, 0x00, 0x6d, 0x61, 0x69, 0x6e, 0x00, 0x00, 0x00, 0x00,
  0x06, 0x00, 0x00, 0x00, 0x64, 0x01, 0x00, 0x00, 0x00, 0x01, 0x00, 0x00,
  0xc8, 0x00, 0x00, 0x00, 0x78, 0x00, 0x00, 0x00, 0x40, 0x00, 0x00, 0x00,
  0x04, 0x00, 0x00, 0x00, 0x22, 0xff, 0xff, 0xff, 0x1c, 0x00, 0x00, 0x00,
  0x00, 0x00, 0x00, 0x09, 0x1c, 0x00, 0x00, 0x00, 0x20, 0x00, 0x00, 0x00,
  0x04, 0x00, 0x00, 0x00, 0x00, 0x00, 0x06, 0x00, 0x08, 0x00, 0x04, 0x00,
  0x06, 0x00, 0x00, 0x00, 0x00, 0x00, 0x80, 0x3f, 0x01, 0x00, 0x00, 0x00,
  0x0b, 0x00, 0x00, 0x00, 0x01, 0x00, 0x00, 0x00, 0x0a, 0x00, 0x00, 0x00,
  0x5a, 0xff, 0xff, 0xff, 0x14, 0x00, 0x00, 0x00, 0x00, 0x00, 0x00, 0x08,
  0x10, 0x00, 0x00, 0x00, 0x14, 0x00, 0x00, 0x00, 0x03, 0x00, 0x00, 0x00,
  0x28, 0xfa, 0xff, 0xff, 0x01, 0x00, 0x00, 0x00, 0x0a, 0x00, 0x00, 0x00,
  0x03, 0x00, 0x00, 0x00, 0x09, 0x00, 0x00, 0x00, 0x04, 0x00, 0x00, 0x00,
  0xff, 0xff, 0xff, 0xff, 0x8e, 0xff, 0xff, 0xff, 0x1c, 0x00, 0x00, 0x00,
  0x00, 0x00, 0x00, 0x08, 0x1c, 0x00, 0x00, 0x00, 0x20, 0x00, 0x00, 0x00,
  0x03, 0x00, 0x00, 0x00, 0x00, 0x00, 0x06, 0x00, 0x08, 0x00, 0x07, 0x00,
  0x06, 0x00, 0x00, 0x00, 0x00, 0x00, 0x00, 0x01, 0x01, 0x00, 0x00, 0x00,
  0x09, 0x00, 0x00, 0x00, 0x03, 0x00, 0x00, 0x00, 0x08, 0x00, 0x00, 0x00,
  0x03, 0x00, 0x00, 0x00, 0xff, 0xff, 0xff, 0xff, 0x00, 0x00, 0x0a, 0x00,
  0x10, 0x00, 0x0c, 0x00, 0x08, 0x00, 0x04, 0x00, 0x0a, 0x00, 0x00, 0x00,
  0x0c, 0x00, 0x00, 0x00, 0x10, 0x00, 0x00, 0x00, 0x02, 0x00, 0x00, 0x00,
  0x01, 0x00, 0x00, 0x00, 0x08, 0x00, 0x00, 0x00, 0x02, 0x00, 0x00, 0x00,
  0x07, 0x00, 0x00, 0x00, 0x02, 0x00, 0x00, 0x00, 0x00, 0x00, 0x0e, 0x00,
  0x1a, 0x00, 0x14, 0x00, 0x10, 0x00, 0x0c, 0x00, 0x0b, 0x00, 0x04, 0x00,
  0x0e, 0x00, 0x00, 0x00, 0x24, 0x00, 0x00, 0x00, 0x00, 0x00, 0x00, 0x05,
  0x34, 0x00, 0x00, 0x00, 0x38, 0x00, 0x00, 0x00, 0x01, 0x00, 0x00, 0x00,
  0x00, 0x00, 0x0e, 0x00, 0x18, 0x00, 0x17, 0x00, 0x10, 0x00, 0x0c, 0x00,
  0x08, 0x00, 0x04, 0x00, 0x0e, 0x00, 0x00, 0x00, 0x02, 0x00, 0x00, 0x00,
  0x02, 0x00, 0x00, 0x00, 0x02, 0x00, 0x00, 0x00, 0x02, 0x00, 0x00, 0x00,
  0x00, 0x00, 0x00, 0x01, 0x01, 0x00, 0x00, 0x00, 0x07, 0x00, 0x00, 0x00,
  0x01, 0x00, 0x00, 0x00, 0x06, 0x00, 0x00, 0x00, 0x00, 0x00, 0x0e, 0x00,
  0x14, 0x00, 0x00, 0x00, 0x10, 0x00, 0x0c, 0x00, 0x0b, 0x00, 0x04, 0x00,
  0x0e, 0x00, 0x00, 0x00, 0x1c, 0x00, 0x00, 0x00, 0x00, 0x00, 0x00, 0x01,
  0x28, 0x00, 0x00, 0x00, 0x2c, 0x00, 0x00, 0x00, 0x0c, 0x00, 0x14, 0x00,
  0x13, 0x00, 0x0c, 0x00, 0x08, 0x00, 0x07, 0x00, 0x0c, 0x00, 0x00, 0x00,
  0x00, 0x00, 0x00, 0x01, 0x01, 0x00, 0x00, 0x00, 0x01, 0x00, 0x00, 0x00,
  0x00, 0x00, 0x00, 0x01, 0x01, 0x00, 0x00, 0x00, 0x06, 0x00, 0x00, 0x00,
  0x03, 0x00, 0x00, 0x00, 0x00, 0x00, 0x00, 0x00, 0x05, 0x00, 0x00, 0x00,
  0x01, 0x00, 0x00, 0x00, 0x01, 0x00, 0x00, 0x00, 0x0b, 0x00, 0x00, 0x00,
  0x01, 0x00, 0x00, 0x00, 0x00, 0x00, 0x00, 0x00, 0x0c, 0x00, 0x00, 0x00,
  0x50, 0x04, 0x00, 0x00, 0xf8, 0x03, 0x00, 0x00, 0xa0, 0x03, 0x00, 0x00,
  0x4c, 0x03, 0x00, 0x00, 0x04, 0x03, 0x00, 0x00, 0xb4, 0x02, 0x00, 0x00,
  0x1c, 0x02, 0x00, 0x00, 0xac, 0x01, 0x00, 0x00, 0x54, 0x01, 0x00, 0x00,
  0xd0, 0x00, 0x00, 0x00, 0x5c, 0x00, 0x00, 0x00, 0x04, 0x00, 0x00, 0x00,
  0xf4, 0xfb, 0xff, 0xff, 0x14, 0x00, 0x00, 0x00, 0x1c, 0x00, 0x00, 0x00,
  0x1c, 0x00, 0x00, 0x00, 0x0c, 0x00, 0x00, 0x00, 0x34, 0x00, 0x00, 0x00,
  0x02, 0x00, 0x00, 0x00, 0xff, 0xff, 0xff, 0xff, 0x02, 0x00, 0x00, 0x00,
  0xd8, 0xfb, 0xff, 0xff, 0x19, 0x00, 0x00, 0x00, 0x53, 0x74, 0x61, 0x74,
  0x65, 0x66, 0x75, 0x6c, 0x50, 0x61, 0x72, 0x74, 0x69, 0x74, 0x69, 0x6f,
  0x6e, 0x65, 0x64, 0x43, 0x61, 0x6c, 0x6c, 0x3a, 0x30, 0x00, 0x00, 0x00,
  0x02, 0x00, 0x00, 0x00, 0x01, 0x00, 0x00, 0x00, 0x02, 0x00, 0x00, 0x00,
  0x48, 0xfc, 0xff, 0xff, 0x14, 0x00, 0x00, 0x00, 0x1c, 0x00, 0x00, 0x00,
  0x1c, 0x00, 0x00, 0x00, 0x0b, 0x00, 0x00, 0x00, 0x50, 0x00, 0x00, 0x00,
  0x02, 0x00, 0x00, 0x00, 0xff, 0xff, 0xff, 0xff, 0x02, 0x00, 0x00, 0x00,
  0x2c, 0xfc, 0xff, 0xff, 0x34, 0x00, 0x00, 0x00, 0x73, 0x65, 0x71, 0x75,
  0x65, 0x6e, 0x74, 0x69, 0x61, 0x6c, 0x2f, 0x64, 0x65, 0x6e, 0x73, 0x65,
  0x5f, 0x31, 0x2f, 0x4d, 0x61, 0x74, 0x4d, 0x75, 0x6c, 0x3b, 0x73, 0x65,
  0x71, 0x75, 0x65, 0x6e, 0x74, 0x69, 0x61, 0x6c, 0x2f, 0x64, 0x65, 0x6e,
  0x73, 0x65, 0x5f, 0x31, 0x2f, 0x42, 0x69, 0x61, 0x73, 0x41, 0x64, 0x64,
  0x00, 0x00, 0x00, 0x00, 0x02, 0x00, 0x00, 0x00, 0x01, 0x00, 0x00, 0x00,
  0x02, 0x00, 0x00, 0x00, 0xb8, 0xfc, 0xff, 0xff, 0x14, 0x00, 0x00, 0x00,
  0x1c, 0x00, 0x00, 0x00, 0x1c, 0x00, 0x00, 0x00, 0x0a, 0x00, 0x00, 0x00,
  0x60, 0x00, 0x00, 0x00, 0x02, 0x00, 0x00, 0x00, 0xff, 0xff, 0xff, 0xff,
  0x04, 0x00, 0x00, 0x00, 0x9c, 0xfc, 0xff, 0xff, 0x46, 0x00, 0x00, 0x00,
  0x73, 0x65, 0x71, 0x75, 0x65, 0x6e, 0x74, 0x69, 0x61, 0x6c, 0x2f, 0x64,
  0x65, 0x6e, 0x73, 0x65, 0x2f, 0x4d, 0x61, 0x74, 0x4d, 0x75, 0x6c, 0x3b,
  0x73, 0x65, 0x71, 0x75, 0x65, 0x6e, 0x74, 0x69, 0x61, 0x6c, 0x2f, 0x64,
  0x65, 0x6e, 0x73, 0x65, 0x2f, 0x52, 0x65, 0x6c, 0x75, 0x3b, 0x73, 0x65,
  0x71, 0x75, 0x65, 0x6e, 0x74, 0x69, 0x61, 0x6c, 0x2f, 0x64, 0x65, 0x6e,
  0x73, 0x65, 0x2f, 0x42, 0x69, 0x61, 0x73, 0x41, 0x64, 0x64, 0x00, 0x00,
  0x02, 0x00, 0x00, 0x00, 0x01, 0x00, 0x00, 0x00, 0x04, 0x00, 0x00, 0x00,
  0x38, 0xfd, 0xff, 0xff, 0x14, 0x00, 0x00, 0x00, 0x1c, 0x00, 0x00, 0x00,
  0x1c, 0x00, 0x00, 0x00, 0x09, 0x00, 0x00, 0x00, 0x34, 0x00, 0x00, 0x00,
  0x02, 0x00, 0x00, 0x00, 0xff, 0xff, 0xff, 0xff, 0xc0, 0x00, 0x00, 0x00,
  0x1c, 0xfd, 0xff, 0xff, 0x1a, 0x00, 0x00, 0x00, 0x73, 0x65, 0x71, 0x75,
  0x65, 0x6e, 0x74, 0x69, 0x61, 0x6c, 0x2f, 0x66, 0x6c, 0x61, 0x74, 0x74,
  0x65, 0x6e, 0x2f, 0x52, 0x65, 0x73, 0x68, 0x61, 0x70, 0x65, 0x00, 0x00,
  0x02, 0x00, 0x00, 0x00, 0x01, 0x00, 0x00, 0x00, 0xc0, 0x00, 0x00, 0x00,
  0x8c, 0xfd, 0xff, 0xff, 0x14, 0x00, 0x00, 0x00, 0x24, 0x00, 0x00, 0x00,
  0x24, 0x00, 0x00, 0x00, 0x08, 0x00, 0x00, 0x00, 0x44, 0x00, 0x00, 0x00,
  0x04, 0x00, 0x00, 0x00, 0xff, 0xff, 0xff, 0xff, 0x18, 0x00, 0x00, 0x00,
  0x02, 0x00, 0x00, 0x00, 0x04, 0x00, 0x00, 0x00, 0x78, 0xfd, 0xff, 0xff,
  0x20, 0x00, 0x00, 0x00, 0x73, 0x65, 0x71, 0x75, 0x65, 0x6e, 0x74, 0x69,
  0x61, 0x6c, 0x2f, 0x6d, 0x61, 0x78, 0x5f, 0x70, 0x6f, 0x6f, 0x6c, 0x69,
  0x6e, 0x67, 0x32, 0x64, 0x2f, 0x4d, 0x61, 0x78, 0x50, 0x6f, 0x6f, 0x6c,
  0x00, 0x00, 0x00, 0x00, 0x04, 0x00, 0x00, 0x00, 0x01, 0x00, 0x00, 0x00,
  0x18, 0x00, 0x00, 0x00, 0x02, 0x00, 0x00, 0x00, 0x04, 0x00, 0x00, 0x00,
  0xf8, 0xfd, 0xff, 0xff, 0x14, 0x00, 0x00, 0x00, 0x24, 0x00, 0x00, 0x00,
  0x24, 0x00, 0x00, 0x00, 0x07, 0x00, 0x00, 0x00, 0x6c, 0x00, 0x00, 0x00,
  0x04, 0x00, 0x00, 0x00, 0xff, 0xff, 0xff, 0xff, 0x30, 0x00, 0x00, 0x00,
  0x04, 0x00, 0x00, 0x00, 0x04, 0x00, 0x00, 0x00, 0xe4, 0xfd, 0xff, 0xff,
  0x49, 0x00, 0x00, 0x00, 0x73, 0x65, 0x71, 0x75, 0x65, 0x6e, 0x74, 0x69,
  0x61, 0x6c, 0x2f, 0x63, 0x6f, 0x6e, 0x76, 0x32, 0x64, 0x2f, 0x52, 0x65,
  0x6c, 0x75, 0x3b, 0x73, 0x65, 0x71, 0x75, 0x65, 0x6e, 0x74, 0x69, 0x61,
  0x6c, 0x2f, 0x63, 0x6f, 0x6e, 0x76, 0x32, 0x64, 0x2f, 0x42, 0x69, 0x61,
  0x73, 0x41, 0x64, 0x64, 0x3b, 0x73, 0x65, 0x71, 0x75, 0x65, 0x6e, 0x74,
  0x69, 0x61, 0x6c, 0x2f, 0x63, 0x6f, 0x6e, 0x76, 0x32, 0x64, 0x2f, 0x43,
  0x6f, 0x6e, 0x76, 0x32, 0x44, 0x00, 0x00, 0x00, 0x04, 0x00, 0x00, 0x00,
  0x01, 0x00, 0x00, 0x00, 0x30, 0x00, 0x00, 0x00, 0x04, 0x00, 0x00, 0x00,
  0x04, 0x00, 0x00, 0x00, 0xda, 0xfe, 0xff, 0xff, 0x10, 0x00, 0x00, 0x00,
  0x10, 0x00, 0x00, 0x00, 0x06, 0x00, 0x00, 0x00, 0x28, 0x00, 0x00, 0x00,
  0x60, 0xfe, 0xff, 0xff, 0x19, 0x00, 0x00, 0x00, 0x73, 0x65, 0x71, 0x75,
  0x65, 0x6e, 0x74, 0x69, 0x61, 0x6c, 0x2f, 0x63, 0x6f, 0x6e, 0x76, 0x32,
  0x64, 0x2f, 0x43, 0x6f, 0x6e, 0x76, 0x32, 0x44, 0x31, 0x00, 0x00, 0x00,
  0x04, 0x00, 0x00, 0x00, 0x04, 0x00, 0x00, 0x00, 0x03, 0x00, 0x00, 0x00,
  0x03, 0x00, 0x00, 0x00, 0x01, 0x00, 0x00, 0x00, 0x26, 0xff, 0xff, 0xff,
  0x10, 0x00, 0x00, 0x00, 0x10, 0x00, 0x00, 0x00, 0x05, 0x00, 0x00, 0x00,
  0x28, 0x00, 0x00, 0x00, 0xac, 0xfe, 0xff, 0xff, 0x19, 0x00, 0x00, 0x00,
  0x73, 0x65, 0x71, 0x75, 0x65, 0x6e, 0x74, 0x69, 0x61, 0x6c, 0x2f, 0x64,
  0x65, 0x6e, 0x73, 0x65, 0x5f, 0x31, 0x2f, 0x4d, 0x61, 0x74, 0x4d, 0x75,
  0x6c, 0x00, 0x00, 0x00, 0x02, 0x00, 0x00, 0x00, 0x02, 0x00, 0x00, 0x00,
  0x04, 0x00, 0x00, 0x00, 0x6a, 0xff, 0xff, 0xff, 0x10, 0x00, 0x00, 0x00,
  0x10, 0x00, 0x00, 0x00, 0x04, 0x00, 0x00, 0x00, 0x24, 0x00, 0x00, 0x00,
  0xf0, 0xfe, 0xff, 0xff, 0x17, 0x00, 0x00, 0x00, 0x73, 0x65, 0x71, 0x75,
  0x65, 0x6e, 0x74, 0x69, 0x61, 0x6c, 0x2f, 0x64, 0x65, 0x6e, 0x73, 0x65,
  0x2f, 0x4d, 0x61, 0x74, 0x4d, 0x75, 0x6c, 0x00, 0x02, 0x00, 0x00, 0x00,
  0x04, 0x00, 0x00, 0x00, 0xc0, 0x00, 0x00, 0x00, 0x00, 0x00, 0x0e, 0x00,
  0x18, 0x00, 0x14, 0x00, 0x13, 0x00, 0x0c, 0x00, 0x08, 0x00, 0x04, 0x00,
  0x0e, 0x00, 0x00, 0x00, 0x14, 0x00, 0x00, 0x00, 0x14, 0x00, 0x00, 0x00,
  0x03, 0x00, 0x00, 0x00, 0x00, 0x00, 0x00, 0x02, 0x28, 0x00, 0x00, 0x00,
  0x44, 0xff, 0xff, 0xff, 0x18, 0x00, 0x00, 0x00, 0x73, 0x65, 0x71, 0x75,
  0x65, 0x6e, 0x74, 0x69, 0x61, 0x6c, 0x2f, 0x66, 0x6c, 0x61, 0x74, 0x74,
  0x65, 0x6e, 0x2f, 0x43, 0x6f, 0x6e, 0x73, 0x74, 0x00, 0x00, 0x00, 0x00,
  0x01, 0x00, 0x00, 0x00, 0x02, 0x00, 0x00, 0x00, 0x00, 0x00, 0x0e, 0x00,
  0x14, 0x00, 0x10, 0x00, 0x00, 0x00, 0x0c, 0x00, 0x08, 0x00, 0x04, 0x00,
  0x0e, 0x00, 0x00, 0x00, 0x10, 0x00, 0x00, 0x00, 0x10, 0x00, 0x00, 0x00,
  0x02, 0x00, 0x00, 0x00, 0x28, 0x00, 0x00, 0x00, 0x94, 0xff, 0xff, 0xff,
  0x18, 0x00, 0x00, 0x00, 0x73, 0x65, 0x71, 0x75, 0x65, 0x6e, 0x74, 0x69,
  0x61, 0x6c, 0x2f, 0x63, 0x6f, 0x6e, 0x76, 0x32, 0x64, 0x2f, 0x43, 0x6f,
  0x6e, 0x76, 0x32, 0x44, 0x00, 0x00, 0x00, 0x00, 0x01, 0x00, 0x00, 0x00,
  0x04, 0x00, 0x00, 0x00, 0x14, 0x00, 0x18, 0x00, 0x14, 0x00, 0x00, 0x00,
  0x10, 0x00, 0x0c, 0x00, 0x08, 0x00, 0x00, 0x00, 0x00, 0x00, 0x04, 0x00,
  0x14, 0x00, 0x00, 0x00, 0x14, 0x00, 0x00, 0x00, 0x28, 0x00, 0x00, 0x00,
  0x28, 0x00, 0x00, 0x00, 0x01, 0x00, 0x00, 0x00, 0x44, 0x00, 0x00, 0x00,
  0x04, 0x00, 0x00, 0x00, 0xff, 0xff, 0xff, 0xff, 0x32, 0x00, 0x00, 0x00,
  0x06, 0x00, 0x00, 0x00, 0x01, 0x00, 0x00, 0x00, 0x04, 0x00, 0x04, 0x00,
  0x04, 0x00, 0x00, 0x00, 0x1e, 0x00, 0x00, 0x00, 0x73, 0x65, 0x72, 0x76,
  0x69, 0x6e, 0x67, 0x5f, 0x64, 0x65, 0x66, 0x61, 0x75, 0x6c, 0x74, 0x5f,
  0x63, 0x6f, 0x6e, 0x76, 0x32, 0x64, 0x5f, 0x69, 0x6e, 0x70, 0x75, 0x74,
  0x3a, 0x30, 0x00, 0x00, 0x04, 0x00, 0x00, 0x00, 0x01, 0x00, 0x00, 0x00,
  0x32, 0x00, 0x00, 0x00, 0x06, 0x00, 0x00, 0x00, 0x01, 0x00, 0x00, 0x00,
  0x05, 0x00, 0x00, 0x00, 0x50, 0x00, 0x00, 0x00, 0x34, 0x00, 0x00, 0x00,
  0x24, 0x00, 0x00, 0x00, 0x14, 0x00, 0x00, 0x00, 0x04, 0x00, 0x00, 0x00,
  0xd0, 0xff, 0xff, 0xff, 0x19, 0x00, 0x00, 0x00, 0x00, 0x00, 0x00, 0x19,
  0xdc, 0xff, 0xff, 0xff, 0x09, 0x00, 0x00, 0x00, 0x00, 0x00, 0x00, 0x09,
  0xe8, 0xff, 0xff, 0xff, 0x16, 0x00, 0x00, 0x00, 0x00, 0x00, 0x00, 0x16,
  0xf4, 0xff, 0xff, 0xff, 0x11, 0x00, 0x00, 0x00, 0x00, 0x00, 0x00, 0x11,
  0x0c, 0x00, 0x0c, 0x00, 0x0b, 0x00, 0x00, 0x00, 0x00, 0x00, 0x04, 0x00,
  0x0c, 0x00, 0x00, 0x00, 0x03, 0x00, 0x00, 0x00, 0x00, 0x00, 0x00, 0x03
 
};

#endif //MPU_6050_MODEL_H